/**
  ******************************************************************************
  * @file    cnn_cardiac_data_params.c
  * @author  AST Embedded Analytics Research Platform
  * @date    Sun Nov 24 15:52:09 2024
  * @brief   AI Tool Automatic Code Generator for Embedded NN computing
  ******************************************************************************
  * Copyright (c) 2024 STMicroelectronics.
  * All rights reserved.
  *
  * This software is licensed under terms that can be found in the LICENSE file
  * in the root directory of this software component.
  * If no LICENSE file comes with this software, it is provided AS-IS.
  ******************************************************************************
  */

#include "cnn_cardiac_data_params.h"


/**  Activations Section  ****************************************************/
ai_handle g_cnn_cardiac_activations_table[1 + 2] = {
  AI_HANDLE_PTR(AI_MAGIC_MARKER),
  AI_HANDLE_PTR(NULL),
  AI_HANDLE_PTR(AI_MAGIC_MARKER),
};




/**  Weights Section  ********************************************************/
AI_ALIGNED(32)
const ai_u64 s_cnn_cardiac_weights_array_u64[1017] = {
  0xbf34b6a8bf11499bU, 0xbf32876abf35177aU, 0xbe93d75cbeae57caU, 0xbcdc77253deab64dU,
  0xbd4ae8b9bd939d27U, 0x3ea3324a3dc3848aU, 0x3ebf65b03da6b55aU, 0x3eabff313e6baf3aU,
  0x3e0f98bc3ea014d6U, 0xbe0faa0b3e0c19c2U, 0xbcd494e43e49f487U, 0xbc57d6353d960d25U,
  0xbf0103a8beabea7eU, 0xbef90434be21c82aU, 0xbf028b3dbefa58ddU, 0xbc912197bd3310fbU,
  0xbee67b94beba4d0cU, 0xbedf8bc6bd898d86U, 0xbee42108bda9862fU, 0xbea9f792bebf9db5U,
  0xbdfa60aabe0e75e3U, 0x3f004ae83e729cd1U, 0x3e8f04443e92fea0U, 0x3def7886bcc1de91U,
  0x3e83bbdc3e3e4ce0U, 0x3cebe8443e6e1d18U, 0x3eafb1033ee7c718U, 0x3daec7f73ed01eddU,
  0x3e8a09853eaa16daU, 0x3ebf99643e8c863bU, 0x3ef660a23e925e14U, 0xbed2f8a23e375207U,
  0x3dd7f38fbe9ea25bU, 0x3ec3fb2b3e8e82c4U, 0x3f14a3be3f0cdd5bU, 0x3eb447003e8c771bU,
  0xbdd9f5b43d6fc1abU, 0xbecc00b9bed33e97U, 0xbe01735cbe05d998U, 0x3dffacf1be639a6fU,
  0xbe438228bda48e0bU, 0xbe872cf93adc97e7U, 0x3e2f0f9e3c29bc3dU, 0x3ec622b53b2d83f8U,
  0xbddff30dbe301a46U, 0x3e81ae7d3e811fe4U, 0xbdd546b9be70a658U, 0x3e41d0f03e0fc504U,
  0x3e65a40b3e005e23U, 0xbd05154c3df893a1U, 0x3e42bc873e40c8a6U, 0xbe8865eebe0c5b76U,
  0x3e12904bbcdc934cU, 0x3d2f7af5be698d32U, 0xbdadd9fe3e349234U, 0x3dcb41ecbe3791a5U,
  0xbd492b42bd7f490bU, 0xbd48e106bde8cee7U, 0x3e7abdc23e91527bU, 0xbee3f68abe1a3b19U,
  0x3ca2ad553f027111U, 0xbf3bcb0f3e037906U, 0x3ddbdcdd3e9dc784U, 0x3c469d8a3e6c44b2U,
  0x3e94ad8a3d8e9d10U, 0xbe22e30f3e6a5aeaU, 0x3e926fc33d2580a1U, 0x3e4f46453d64b9eeU,
  0x3d77a336bd166877U, 0x3e0817153e83bd5eU, 0xbdb404393e0cba77U, 0xbda9ed12bcafd213U,
  0xbe05cbfe3eab09b2U, 0xbd62bf503d45a4b7U, 0xbe38bd913f008692U, 0xbe75096ebc755084U,
  0xbc679fa6bb39582fU, 0xbc2987f9be67909dU, 0xbdfaef2cbe069488U, 0x3ccebca33e9a2230U,
  0xbe015f7cbe7a6d8fU, 0xbec677ff3e96aca0U, 0xbe4a27cabed08a5bU, 0xbead2ea23e8847feU,
  0xbe49d9d1be2a6c13U, 0x3dc33c753eb6692aU, 0x3e717fe63eeadee2U, 0x3e760cd1bea5034dU,
  0x3cab9af53e313639U, 0x3eccf6babe031600U, 0x3e4d04dc3e6e55d0U, 0xbf18609abe12ad4bU,
  0x3de7d8a9bddd50acU, 0xbf07315ebcc65803U, 0xbde7ebc23cbe687bU, 0x3cc96c463df7c265U,
  0x3e1b44a73e27e98aU, 0xbe103ad83e33ac80U, 0x3deb528e3eaf2244U, 0xbbb99f48be6e9d4bU,
  0x3e494c943dd5a98dU, 0x3da804dcbe11778bU, 0xbe3752f9be2fde82U, 0x3e6a84783d9b7905U,
  0xbe28efaabe91e9feU, 0x3e36dd2f3e061374U, 0xbd85fc1ebe8872f7U, 0xbdff992e3e2f54dcU,
  0xbe321b423e1256b0U, 0xbe937c3cbd77a4a4U, 0xbd93da5a3eaee14fU, 0x3ec4a6bbbc870c85U,
  0xbe48da85be7a1dbbU, 0x3e485d233ddcae2cU, 0xbc98a93dbdb200a1U, 0xbd1b47343ea9979dU,
  0xbe37b1f6beb137feU, 0xbd6eb4fb3dcbc921U, 0x3e310b32be59e69cU, 0xbca35f503c8852aaU,
  0xbd244690bf01cee5U, 0xbd9751993eb45dcaU, 0xbd73b64bbf1406f3U, 0x3ede6d7dbc307b9fU,
  0xba12e60e3de519c1U, 0x3ed2b55fbea49434U, 0x3e97327e3ee70485U, 0x3e83bd3dbebf9c95U,
  0x3be1a633be8d7208U, 0x3d1b830a3e578665U, 0x3e7f4a4fbe19e2a7U, 0x3cff0ead3e2933f3U,
  0x3e368fd1bee5c78fU, 0xbec23bb53d65ead7U, 0x3e86077dbd679810U, 0xbe77c7593e7743f0U,
  0x3e6c10db3cc43209U, 0x3de9cddebe8370e0U, 0x3dd3dfe2be43f08cU, 0x3e47647f3db96364U,
  0x3c5a38783e28b024U, 0xbda6616a3dc2b307U, 0x3e6591973e03d37aU, 0xbea478993e0972daU,
  0x3ea4bacb3ed69d53U, 0xbf26a0fdbb8c624fU, 0x3e50cbfa3eea915eU, 0xbe37801abd80f96aU,
  0xbe9140c93f0a35a5U, 0x3ebf5a96be320abeU, 0xbd70760a3e45090eU, 0x3ed06a6cbca74de2U,
  0xbe56bcf03df0a459U, 0x3d2a859ebea5839fU, 0xbd687dd73c4bccc1U, 0x3df14d07bf08e1b8U,
  0xbde58ab7be0e0098U, 0x3d3f9c57beda4a43U, 0x3cc63ce5be4c86ecU, 0x3e39a63fbe5925f0U,
  0x3e8d840dbf05b758U, 0xbe77b269bebecad9U, 0x3e8801d9be3706f7U, 0x3d7fd2a6bcce337bU,
  0xbe1783cb3e258fe5U, 0x3d9a9c5c3e176dc0U, 0xbe2520323dee010bU, 0xbef0fed03e0553bfU,
  0x3dd253643e882299U, 0xbe980aeebdc81741U, 0x3d70c7473f36d85bU, 0x3e8eedeb3d838b1aU,
  0x3e7c612d3f08c36bU, 0x3ee39af63da803dcU, 0x3e8756393e68e1eaU, 0x3ee52eac3ecc05a9U,
  0x3df3a527bdc40c8bU, 0x3e8929f93ec3b1c4U, 0xbc5b40203e4ec536U, 0xbe226b613d37e1beU,
  0x3d9d1c1bbc5a5e7dU, 0xbda1c4bbbd4c636aU, 0x3e52a8e4bdb33525U, 0xbd77dea2be99fd4cU,
  0x3e27b42bbe3e1f63U, 0x3d9b5c303c3cd4f3U, 0x3d57c680bd20880cU, 0x3bc417cd3c0ca428U,
  0x3e7325023e37c86aU, 0xbd8706d23df0748eU, 0xbcbf5f813e81334fU, 0xbebc6936bdb7dc7dU,
  0xbe6f4c273e9d09fdU, 0xbde53b72bd069d51U, 0xbe3cf9a43e2b080aU, 0x3e2d7d6c3df68b76U,
  0xbdd8c3a33de0af1bU, 0x3e9d8aed3e0eef6aU, 0xbd920324be6452ecU, 0x3e880f30be02c387U,
  0xbe81e4acbe9f67eeU, 0x3e47b7f63e218b1aU, 0xbe2ecec3be9dbc0bU, 0xbdb06f3abd9fdadfU,
  0xbe014f93bace790dU, 0xbee01c46be0a7178U, 0xbe49104abd989d65U, 0x3daf7368be047e78U,
  0xbea4c8e8bd41c012U, 0x3e7a30b7bea03829U, 0xbe772fdbbea517e2U, 0x3df0a4efbe90dc49U,
  0x3e4c3f4dbd8ed77fU, 0x3e94bf81bd9ebd2aU, 0xbcf66273bf117755U, 0x3ecbcd0cbdfc7dd7U,
  0xbebfaaf7bec361dfU, 0x3e8c16d13e21a633U, 0xbe81c207bbe71c9fU, 0x3ea2204a3e6a307fU,
  0x3db6c630bc330ea0U, 0x3ee5da16be9bde3dU, 0xbd0d1fe13dc56c1aU, 0x3e82b5debe888d8eU,
  0xbdf54e3fbc9154dfU, 0xbd976c333dee3f45U, 0x3e54642dbe448fa3U, 0xbe2a8b30be9a41f4U,
  0xbd2ce13dbed9933eU, 0x3c590b73be8648c1U, 0xbe03693abe8e2d38U, 0x3db2da2f3dc8acd5U,
  0x3d2a74f4be5697f3U, 0x3e0f57d3beb07f0bU, 0x3e5f8fafbdd876dfU, 0x3f00e63dbed4a385U,
  0x3ef71e29bea90cadU, 0x3ead9edd3ef014d0U, 0x3c6d1c82bda58439U, 0x3e56d63dbd4ce5d4U,
  0x3c2552b63e811d87U, 0x3e913066bdb99e93U, 0xbeb4df003cfca60dU, 0x3dc73c4d3e4e7eedU,
  0x3ebaacde3e95f861U, 0x3d802f19bc7ed4a2U, 0x3d63f089bd76856cU, 0xbe5d9ca53e334e6eU,
  0x3cf4200f3c341f62U, 0x3ca66bddbe823b20U, 0x3e5cb160be377472U, 0xbcc387843ea83e59U,
  0x3e158d49bd5f0cbbU, 0xbdaad5e83e708096U, 0xbe9a19ef3e34b1e3U, 0x3d857f91bdac5116U,
  0xbd5517cf3d77d9d0U, 0x3c9b4f9cbdc00b65U, 0x3f01b936bcce679cU, 0x3d8cec373dea646bU,
  0x3e0f6542bd0a087fU, 0x3e39fbfe3ea840ccU, 0xbed0d451be109042U, 0x3ef7c2cdbe689b6dU,
  0x3d57bc083e3a9d44U, 0x3cfce6f9be701804U, 0x3bfbf51e3d2c59c3U, 0xbeea58a6bea7281bU,
  0xbe7f17463e0972ddU, 0xbecd85713e3eb984U, 0xbca8915d3e37232eU, 0x3e3d25b83e4ef010U,
  0x3d0c0bffbc9dba64U, 0xbe7d1487be5c6f36U, 0xbe65b83d3eced120U, 0x3eb7f7233ed6cf3aU,
  0x3c1b2066be2cd5cfU, 0xbc8c2f233e43c457U, 0x3e5ac5bcbef31522U, 0xbd2ecff33db9a90bU,
  0xbf7ca9b03e998725U, 0xbeb1fc133ea6d99eU, 0xbe9664433e67c741U, 0x3dbfc6763ddca30dU,
  0x3d0f1679be016d91U, 0x3e84033e3ee92f48U, 0xbe6021da3e942a30U, 0x3da8f9bfbe321fd4U,
  0x3b9055603d2882e1U, 0x3e36d9dabc840973U, 0xbdbd69403b2912d6U, 0xbcba98ab3e6430abU,
  0x3e1d8b26beffed4aU, 0x3ee03270becb7720U, 0x3e8dce3dbeb9013dU, 0x3ec7c5a93aca3af1U,
  0x3eb694adbdce4c2aU, 0xbd86a7163d7d6a7bU, 0x3b63de7cbef2c779U, 0xbe70fda3bec1fdebU,
  0xbdf891b1bed7a12bU, 0x3d71bd613e2b29ceU, 0xbee241ddbe3ce7f6U, 0xbee2e1f33c50097bU,
  0xbd89f93d3e04f346U, 0x3e796d8d3e724735U, 0x3f58db5dbbb6f3ecU, 0x3f0e3cdd3dcc15f4U,
  0xbe0cdaadbe49a8abU, 0x3dcfe1fc3cdd5d98U, 0x3e4278453e041faeU, 0xbcc91ffabe246038U,
  0xbdb5fcd13d3133e1U, 0xbebe48f1be96035cU, 0x3cba48123d904170U, 0x3e200b22befaed2dU,
  0x3bd47844be9b3518U, 0x3df3f9b7be7e9298U, 0x3c52fd733f115a18U, 0xbe0da1f23bb19df1U,
  0xbf44b47dbc607450U, 0x3c9485c03e298d1dU, 0x3e7d9f783efd33dfU, 0x3f207ff23e4772ccU,
  0xbe449eeebdd26cfaU, 0xbddc27b2be0fd6e4U, 0xbcb14e12bdd509d5U, 0xbf03e3853e049810U,
  0xbe83d8193e54b2c5U, 0xbdf3e8df3e6497b6U, 0x3e21b216bdbb1db5U, 0x3f0d4ac03e4f8b7cU,
  0xbe2d6b093c8d272eU, 0x3e5fcea63e27e4feU, 0xbd17ab34be1231b3U, 0x3ccd4c743e7b620eU,
  0x3e227aeebe917e43U, 0xbe0cb9963da14a87U, 0xbe1649bebd8aaa93U, 0xbe7eb1793e2384edU,
  0x3cd8cb663d0cacd2U, 0x3d1272463e051c5bU, 0x3ea691643d612039U, 0x3e9e5b0fbe5a120cU,
  0xbcab142bbca6940cU, 0xbe2c6ef73db6de38U, 0xbd8453d7bea0306dU, 0x3de379a23c6c73e6U,
  0xbe937bc43db44ae8U, 0x3cad4fafbd98b022U, 0x3f284c473e34abe8U, 0x3f4498c83eaec8a3U,
  0xbe5e4488bec212f2U, 0x3e79bd41be03f2c9U, 0x3e3313d9be4df623U, 0x3eba9ccbbc813d82U,
  0x3dd62e133e1b457cU, 0x3e163796be3649f9U, 0xbd3bb720bd6b7af0U, 0x3c511ec13e0f48d2U,
  0x3d5bf877be919f9bU, 0xbe405d673ea4fdfaU, 0xbdcfa9b53c5aa542U, 0x3eaaa3e9bdccc112U,
  0xbdea56b2be9e90adU, 0x3dc872f83c9f297aU, 0xbd58f569bec584deU, 0x3de65871bec49866U,
  0x3eeab551be12ac34U, 0x3f579f673e917996U, 0x3f2b90fabe91b4faU, 0x3ee6c808be381c5dU,
  0x3f01a31a3d84f26fU, 0xbd9a9f893e4fc5feU, 0x3e07a087be4da2b5U, 0xbe4b38ce3d850babU,
  0xbe5824143da13fc7U, 0x3d9195e23dec35e9U, 0xbeac85623e6ad76eU, 0xbc7d67243e99431eU,
  0x3ec54859be4751f3U, 0xbc0900b53e57ca6eU, 0x3e926ee93dc5b518U, 0xbe0ebe813e00f1e9U,
  0x3ebaeea3be27f7f0U, 0xbd767286be7fccfbU, 0xbdf95818be3e7678U, 0xbded158cbd73ec95U,
  0x3dd17992bc7b41fbU, 0xbd396f77be3b0c84U, 0x3df705213cb87ed1U, 0x3f10363b3e45243cU,
  0x3eea36a4be533ca1U, 0x3eae9b843da8acb6U, 0x3f0fff863e935a8bU, 0x3eb6da8a3ea5fd75U,
  0x3eb7379dbe21cdafU, 0x3e4c9a2fba74b359U, 0xbe4e9c863eb01e0aU, 0x3e87185e3e90e094U,
  0x3e16c9653e380137U, 0xbeda4a33be45a3d7U, 0xbcdc271f3e5e2f0dU, 0xbd8bed013d3686c4U,
  0x3e1733e7be87bc06U, 0xbd955e103d462bb8U, 0xbd924b683d85deb7U, 0xbe3a0a6cbd55ecfcU,
  0xbe9e39e23b810172U, 0xbd78cf76bdbbd761U, 0x3d2ed4c63de23701U, 0xbe33a974bd22b761U,
  0xbdc09af8be98683aU, 0x3ed06ecc3d87debfU, 0xbec8760fbe9d1b51U, 0x3e6551773d392cf0U,
  0x3ea7379fbe461043U, 0xbe5a3ef73e8c7220U, 0x3f063decbe6f76a0U, 0xbdc87a5d3e960806U,
  0xbd4a33adbf011809U, 0x3d91a5d13dc74d8bU, 0x3db3a58ebe9def5aU, 0xbc80e5543e9ae1f5U,
  0x3e15769bbe80248aU, 0x3e771bf1bda31cf2U, 0x3ea7193bbeb9d72fU, 0xbda9ebaebdffc6d8U,
  0xbc21e0f4bf3e9e6cU, 0x3e23dcdfbdefa2d3U, 0x3eb3cc1c3e915c74U, 0xbe35cd2fbc9d6e03U,
  0x3dc113b3bd351b03U, 0xbda6589c3e991175U, 0xbe0c89a13d65a02cU, 0xbe264067be95e176U,
  0xbe8dcf9cbdf929efU, 0x3d00aad53d85adb0U, 0x3e4f1a4c3d947c3cU, 0xbe2aa79e3d88d01eU,
  0xbe981123b9bb2078U, 0xbe09e6f5bca7cfd6U, 0x3da58723bd2e976aU, 0xbe828c72be03a21bU,
  0x3d25f438bdac7c53U, 0x3d532dafbe7be5b0U, 0xbe6824563e06c8f8U, 0xbe49f95e3d1ae9b5U,
  0xbe84205ebe3700a4U, 0xbe34751ebdcacd4cU, 0xbe8d3a11be0f45f7U, 0xbea7a0e2be1128feU,
  0xbe7c965b3e11e01aU, 0xbde9f6bb3e041f85U, 0xbe572065bcf1c7d5U, 0x3e5bb69e3df37bc2U,
  0xbec181ae3e02c381U, 0x3ee120babe9d9bcfU, 0xbee9fc84be05ffc9U, 0x3f1c9835be27de10U,
  0x3dc7bef13e802cafU, 0x3ebb233bbc4ff88dU, 0x3eb0573a3e971735U, 0xbdb4248fbe2c53fbU,
  0x3ddc479a3e407bffU, 0xbe901bec3e30804aU, 0x3e8e2aaf3ea0218bU, 0xbda96e3abe2c4971U,
  0xbe4d7a60bf00c059U, 0xbeeabc61be131f4fU, 0x3e36b03ebea0f265U, 0x3cfb23c8be84b7cfU,
  0xbe6693b8bac2fb8aU, 0x3e4485cf3df61a36U, 0x3edd725d3cdfcbf2U, 0xbe1518e1bd7425e7U,
  0xbe498584be59a612U, 0x3eced8153e981a21U, 0x3dfe516d3d025932U, 0xbaeb1cfc3e0b9b78U,
  0xbe21297f3d9c7df6U, 0xbce4f67a3eda5252U, 0x3e83f89abd39771fU, 0x3eb177f4be8a6decU,
  0x3dd1ce26bdc2e625U, 0x3dea27c3beda94c7U, 0x3e011b2e3e5f0fb4U, 0xbeafb7c7bed447a8U,
  0xbd92ecd53ebf4938U, 0xbeb582483cb343e6U, 0x3e6782773d2c4fcdU, 0xbddcb651bd867715U,
  0x3e923ca43c995a2fU, 0x3e8f15df3e3d1634U, 0xbd2eb41d3e0bb89bU, 0xbd1176fb3dbb2742U,
  0xbebcbd6d3dd0e5bdU, 0xbdca3c3d3e947cbfU, 0x3e49ba59be7efad3U, 0x3e2057903e0206b7U,
  0x3e9866c5be0f3fb5U, 0x3e752ec6bdb8a9faU, 0x3cd3418ebe2ae2cbU, 0x3d5419f4bcae9365U,
  0x3d006619be207dd6U, 0xbdda9e653de0079aU, 0xbd52c7b73ead43a8U, 0xbe1c5b5c3d15eafbU,
  0x3ea13f7abe2e5959U, 0x3d83895bbe76545cU, 0x3e5b6d7fbda879ffU, 0xbe22d6293e86f8b2U,
  0xbda470583dc79611U, 0xbe9e41e4bcaee003U, 0xbeaf65773ce799ecU, 0x3e975036be493e51U,
  0x3ba26ca63edf615eU, 0xbd3dea95bdd430e9U, 0xbe4a8fb03e83a614U, 0xbe67c07b3b3140c7U,
  0x3b7847943d9fc47cU, 0x3e31ccf3bcc5a88cU, 0xbe090cc23eb77c62U, 0x3e8a1d64be58e1b9U,
  0x3e2d6dce3ed84c02U, 0x3f276feabe469a22U, 0x3ce1708cbc8b6c11U, 0xbe1c564a3d5df958U,
  0x3eb90ef1be6d0cabU, 0x3e3196033ba58419U, 0xbec1fd96be5fe67dU, 0x3e6a6a3d3e96c4bdU,
  0xbd70f2453d426fb6U, 0x3e0f1e38be3299f5U, 0x3e48e868bd62890fU, 0xbdc1df2c3e8a1341U,
  0x3bd0b0403e0c717fU, 0xbeb9d719be002234U, 0xbee3c8863df6e708U, 0x3e22b8edbdcae408U,
  0x3eb5c2813d8a5fb0U, 0x3eb70cd5be177f38U, 0x3e84c3923e7ac7d6U, 0xbe6e79fabe42297bU,
  0x3da64a283eb891aaU, 0x3e8af227be66a5f9U, 0x3edd6d8e3c3bdcd6U, 0x3ef7b48cbe860647U,
  0xbdd1d2973e9f2aa2U, 0x3ebf6540bd72b1f0U, 0xbbe485643ec8ddb3U, 0x3e9bac61be55f312U,
  0xbdcf48683e53bdcdU, 0x3d6374293e2478f2U, 0xbe8746d1bdd05f94U, 0x3e13ffb1beb9ba66U,
  0xbdd72e243e572360U, 0x3d4724a0be8564aeU, 0x3e352dc4bd7f78ccU, 0x3e4f0b46bcf5b9f2U,
  0x3ef61018bd04a6c9U, 0xbde7dc4bbe1816b8U, 0x3e1230a6bd315db1U, 0xbe09fe64be6ac655U,
  0xbce44a7a3e6d92b8U, 0x3d4cfad1bdb843a1U, 0x3e3197d63db11e79U, 0xbf92aa12be27f796U,
  0xbe07a66ebeae530fU, 0xbf0882d0be0f7d51U, 0xbe4dbd53be9278f7U, 0xbec19ef0bd8d0812U,
  0xbf15d1583e79fa42U, 0xbd9ebfdc3e3e1770U, 0xbecbe1e63df021d7U, 0xbd2a3b783ecb883cU,
  0xbec1498e3e96336dU, 0x3e56b8b63f09cbb4U, 0xbe19525b3dbf31f4U, 0x3ec5dfe3bd0c28a3U,
  0xbe2cae4e3e8ed3ccU, 0x3e14dbb03c518379U, 0xbe57f428be0746a8U, 0xbe34a93dbe5b606aU,
  0xbe7f6a9cbd3f551bU, 0x3d512993beafa118U, 0xbc58a0e73e8fa220U, 0x3d9b693cbeb4bd4fU,
  0xbe0bc86a3e517cd4U, 0x3ed6c1923e1df958U, 0x3f01bb683e2401bbU, 0x3f0c1ccd3ed38e66U,
  0x3e9c3fdcbd5d5cdaU, 0x3f056ab43e6b4552U, 0xbe0441f73d81e71aU, 0xbd518691bea8d838U,
  0xbe91f8433c062b67U, 0xbe9ce7fcbe75bc9eU, 0x3eab2c3e3d89772cU, 0x3cc10ff5beb79d6bU,
  0xbdcb74c53d3ccedaU, 0x3f02326d3e0e605aU, 0xbc3a987f3eb0cf54U, 0xbdcd296b3e69da7dU,
  0xbea74fba3e6f5eb5U, 0x3d83b17b3db8ed51U, 0xbe13f38d3b496bc4U, 0x3d4910d73d4cdfa6U,
  0x3e85f1bfbe47ab30U, 0xbdba02493dd3c83bU, 0x3e726e3fbf9b24b5U, 0x3e9c11dbbf1a76d8U,
  0xbe20d614bf57365fU, 0x3d2b5e3cbece0adaU, 0xbea7f1163e8e296cU, 0x3d954137bdbefaefU,
  0x3e834011bed660e7U, 0x3dbaf9f23dc726bfU, 0xbe0c6e9c3dbb3d45U, 0xbe34fba3baed27a8U,
  0x3eae5d64be9ae5ebU, 0x3cf7ba373e863724U, 0xbdca7d53be9c4b63U, 0x3b96af603eaf99e0U,
  0xbefb157f3ebc20b1U, 0xbeef95603e9140a5U, 0xbe85d0efbe304496U, 0x3e4c8c23be312d09U,
  0x3e9bf109bdaf933bU, 0x3e52034a3e91482bU, 0xbc4d19e6be8fa336U, 0x3e7ee35ebc3b637eU,
  0x3ddf4c0cbe7156ebU, 0xbe34b1c4bdab53ecU, 0x3efb4bf33ae5734fU, 0x3ef56b22bb5efe41U,
  0x3e86d6623e47d48dU, 0x3e9eb8f73e338944U, 0x3dc23209bdca8188U, 0x3e916af03bdbf767U,
  0xbd12cf05be659032U, 0xbe997e24bdd201f4U, 0x3e9dabf23ec09682U, 0xbee57b22beadc07aU,
  0x3ca53f443ddcff6cU, 0x3e8c7aa03e7a03cdU, 0x3ecfb7223dc8c5c5U, 0xbd543e493e969bd8U,
  0xbdfece76bdc0ae73U, 0x3d84bea1bdefd545U, 0xbdfa34983caacf19U, 0x3dab82e53e8dff15U,
  0xbdacf74a3df9b755U, 0x3ed710fa3ce54153U, 0x3d4349223e933d7dU, 0x3e83d1b93df093feU,
  0xbdda83373eaf85caU, 0x3e5dd8bfbea00866U, 0x3efbbbe3bd4477e0U, 0x3ca96c103e06b263U,
  0x3d73bd6c3e9d9d43U, 0x3ef02e38be2735e4U, 0x3dce738b3d864259U, 0xbedaf960bea44253U,
  0x3eb4e4633e389ea5U, 0xbe44f7783d1184f9U, 0xbc92316d3e2294adU, 0x3e86252a3e7289f1U,
  0x3e4837463e96bbe9U, 0xbe6429da3e8fa86eU, 0x3e9d8805beccef21U, 0xbf196c47be81c11dU,
  0xbdd9b8e2beee7db6U, 0xbe45abf1be8f0999U, 0xbf27f47bbe5f9ac2U, 0x3ec7ad3f3eb6590eU,
  0x3dd28471befd07a4U, 0xbf30ef92be60b032U, 0xbeb22430bdfec906U, 0xbf67a36a3e541c42U,
  0xbeadb2c63e707d38U, 0x3e8dbc153e8fe86dU, 0xbe14d98a3d0894d0U, 0xbdc05c5bbc8d9aafU,
  0x3eb62fc8bddd6946U, 0xb97184913e687738U, 0x3cf4f84dbe9d189fU, 0x3dead15a3c65741aU,
  0xbdebd7ec3e5a0ddbU, 0x3e312a04bd0a3fcfU, 0xbe8e80913dea8e78U, 0x3e8bc6aebdc9d040U,
  0x3dc42879be3d9a85U, 0x3eba34463e5fd42cU, 0xbe66a2d8be3b3a1dU, 0x3e104256bdd7926aU,
  0xbe27b489bd5fdfaaU, 0xbe240f4a3d1f74b7U, 0xbe97cd863d8b19feU, 0xbe8c3c8abd348e54U,
  0xbf1080e1be414ea0U, 0xbe0fa5443d5f604dU, 0xbe6c3db03d90fd49U, 0xbe21ec0cbe8d23d7U,
  0x3b0281ddbe11c2d0U, 0x3ea2edcc3e8e6c22U, 0xbe443d76bd1ad44aU, 0x3eea61f33ea4dfa5U,
  0xbe0face2be0136c2U, 0xbd76c0903cbd0c3eU, 0x3e2140083db7d5a7U, 0xbd7158623bdddce9U,
  0xbd76855e3dbd9a4bU, 0xbe8e48b33dec4231U, 0xbe5f4723be1cff4aU, 0x3eca3627bc749ef7U,
  0x3ef3a5023e87cf8aU, 0x3eb1da8039e4b7a2U, 0x3e8eb861be4a20b7U, 0xbf0858b2bebc588eU,
  0x3e8ed69f3e13a17dU, 0x3f3b85cabe0353caU, 0xbc16d889bdf9f8e2U, 0x3f271a9fbceddec6U,
  0x3e9d09e8bea55cc0U, 0xbe5d9ed03d0a1d68U, 0x3e8ecd5a3d47e90eU, 0xbeb1885abe863fe3U,
  0xbd5e2946bdacf548U, 0x3d8a8a983dad8ecaU, 0xbed4cf0d3cdd454bU, 0x3dfeade33df19045U,
  0xbe56f60dbe5cbc01U, 0x3e4fe4cabe105566U, 0x3e81d4d93e3ad59dU, 0x3e00e5723e85d91fU,
  0xbe944bf1be0ce3eaU, 0x3ec6cd2c3d9adca0U, 0xbe0bbd843e9ac2bdU, 0x3be3ea813ec46064U,
  0xbd22c61a3dc5a8feU, 0x3e1ac10abdb904a2U, 0xbda60b3dbf002360U, 0xbe485d29bc708e31U,
  0x3dcd162abc9dacf3U, 0x3d5d76b7bdbded99U, 0x3f19ac263e00ac4dU, 0xbdd3481b3dedf07dU,
  0x3e0ca941bd6c0e40U, 0xbeee9db63de86023U, 0x3dbbd0543dbc617cU, 0x3edd3138bf210b6bU,
  0xbbed62233e5217f5U, 0x3eb23b93be86b538U, 0x3d72c6d73ead93dcU, 0xbe5592efbe2e640bU,
  0x3e18182b3ea17d39U, 0xbd33b50c3e03bce5U, 0xbe70c5773eebd9a3U, 0xbe8ab259bf411135U,
  0x3e12a23b3d940af2U, 0xbe910622beaeb19dU, 0x3e2008a43e81d6dbU, 0xbf5b1588be57b090U,
  0x3de366e1bd0e157bU, 0x3e77eaccbee234aeU, 0xba3785123e111ddcU, 0x3cfe29a0bceab896U,
  0xbec10b283e40948bU, 0xbeab07603c429883U, 0x3dacd824bdac19f5U, 0xbdee0ea53eb63dfbU,
  0x3cc3d0593dc53394U, 0xbe1aa4b53ea41f97U, 0xbe098e153d8e486aU, 0x3e31984a3e741da6U,
  0x3df09f1bbe391a01U, 0xbe9ae5ec3e2078dbU, 0xbe3c2cde3e9d8fd9U, 0x3d8b6ee1beade812U,
  0xbc595edebe5e4d19U, 0x3ea2b8b83d0a5256U, 0x3ece08113ed5085fU, 0xbe142b973e6bfc6bU,
  0xbe19007b3ca8e67aU, 0xbd6cc71d3e3a8539U, 0x3e50b95c3ebc0463U, 0xbee2211bbde2e067U,
  0x3dc63b72bdb0e66cU, 0xbf15dac83dd07a3bU, 0xbe35ac35be426450U, 0x3e629ac2be047254U,
  0x3d1cfdd63db630ceU, 0x3f032e1ebd803f3dU, 0x3eabc10abe6e6dd0U, 0x3ea5fbadbe813587U,
  0xbe23890dbe461448U, 0x3eaabb5b3e20278eU, 0x3eb8cf523e6d5ddfU, 0x3e627c4bbe8b0a4dU,
  0xbe5b78a6be68cfdaU, 0xbe185004be76d7b2U, 0xbef414193da00a24U, 0x3e9801dc3c888dd6U,
  0xbe7394563dcfdf14U, 0x3eb3e500be3f80d0U, 0xbdfa9809bd829cbbU, 0x3bf3c08cbe2e5158U,
  0x3e681457be93eae9U, 0xbd894dc8bd8ee430U, 0x3d98f580be68f72cU, 0xbf1f116cbe5d15faU,
  0x3d2c4f23bdf3a930U, 0xbebd298abe01c642U, 0x3dc5554fbe0e07caU, 0x3d8519d33e87b6c4U,
  0x3e992d5b3d93b647U, 0x3e108ef83daa5f9bU, 0x3e37d0aa3dc5c1bfU, 0xbe1da6593db91ba8U,
  0xbded603dbe276822U, 0xbe1073a33abbb148U, 0xbd6696a6be8087a6U, 0x3ecb2c873d135512U,
  0x3e251b5a3e7bae06U, 0x3e1955f13da9b488U, 0xbed35a433c3149e8U, 0x3d84bbb9be3c8827U,
  0xbe603e1c3bcaab1dU, 0x3b3ebf2c3e841936U, 0xbe0a584abe0d8278U, 0xbdead2bfbe9d08deU,
  0x3e84e420bead65efU, 0xbe156661be6f2ce5U, 0x3d523e70be670196U, 0xbe6a76b8bdeda5ffU,
  0xbc36b48dbdcf62b1U, 0xbe31d4563db86921U, 0x3e0940d7bec5819bU, 0xbdd04ac13e6370b1U,
  0xbe0ee2aebeec2f35U, 0xbebb4446be9e5bf2U, 0x3dbfb89dbe902f58U, 0xbda4a3063deafa18U,
  0xbf0063403eafb451U, 0x3d9c7f2bbe86059dU, 0x3d611a263cff5238U, 0x3ea9cfa53be89a31U,
  0x3e66229f3b2339b2U, 0x3d2be7483d7228abU, 0x3e7230e53ee7d2f1U, 0x3e2ecc473e970952U,
  0x3dbf3d643e2da9b4U, 0x3ef085ccbd1e3e2aU, 0x3e83e2e4be1de4b8U, 0x3e01f3313d6599fbU,
  0x3e897c27bdc28122U, 0xbecd73483eb6587cU, 0x3defc996be472597U, 0xbea39bdbbe3475d4U,
  0x3d1bacfebe96156eU, 0x3df6a98d3e3710e2U, 0xbdd30328be94c34cU, 0xbe9d72d53cdc4d9fU,
  0xbe796f513df7bf4bU, 0xbeb1f941bdc62a09U, 0x3e5212123e69582fU, 0x3ef78a033e0cf540U,
  0x3e1438f83b80d297U, 0xbd32e3003dd3bc59U, 0xbe186ab6bcebcf4bU, 0x3e90e4663e2d4f69U,
  0x3e607634bdab0ea2U, 0x3ebf65dabe4bd46cU, 0xbe827a32befd5289U, 0x3c64e2fdbe84d2c4U,
  0xbe67e0b0bea56959U, 0xbe0188893e705f1eU, 0x3e63a1c33de18ca9U, 0xbe1ecabc3d2d9c9aU,
  0x3e0296a33e173c7bU, 0x3e067a663e367392U, 0xbe54d4223e3854dfU, 0xbc7d918b3d0812d0U,
  0x3e93f3403ee28c7bU, 0x3e2d9a7dbd733072U, 0x3ebd2a5a3de60ae6U, 0x3edf8b6e3e358814U,
  0x3ea800e8be5743d8U, 0xbea9c4fc3e94b6c9U, 0x3dc61575bf154000U, 0xbd8d4da6bd67c228U,
  0xbeb1090f3e71632aU, 0xbdf5d84abe1fabd2U, 0xbe8b3ca83e693ef1U, 0x3f0c991ebeaee5ffU,
  0xbe83b2ae3e07e93aU, 0xbf4488323ea0a400U, 0xbf14b4ddbe90dbc2U, 0xbf566f92bc2d4cbcU,
  0xbf612768be04b77cU, 0x3e9078c23dd4c3d6U, 0xbda819783e96401bU, 0x3e58bb553e908a2eU,
  0x3e2f2db1bd042ed2U, 0xbe968356bdfad1d2U, 0xbe04cc3dbe7469f8U, 0xbe2c130dbdc98901U,
  0x3e5381f2bda42748U, 0x3e35c4583d8c4480U, 0xbefa57153e94484cU, 0xbeefce3ebda421cdU,
  0x3d5538a63e792965U, 0xbd34bbb43c32529cU, 0x3cbaae213d8fe580U, 0x3e92191b3e64c2ecU,
  0x3e4eea57be98bf7bU, 0xbbff55db3e6870acU, 0xbcea951d3e16fe05U, 0xbd42c022be06c0f8U,
  0x3e9852613e196409U, 0x3ce0661d3e3a5d0aU, 0x3e8718623dac2305U, 0xbbafea01bcf1fa9cU,
  0xbdc9513a3b6b46acU, 0x3d28d2323e68ae40U, 0x3d9f4990be6a3f39U, 0x3d07466c3deccf8cU,
  0x3acc1289bc9f1fb5U, 0xbdc8920b3e40a021U, 0xbdb7d0483dafaba0U, 0xbe235b673e63fdaeU,
  0xbe83b39abd7d7afaU, 0x3c4fdb6d3e09d5adU, 0xbe7ac3493d831baeU, 0x3ddf52d23e8d7259U,
  0x3d02864bbf27513aU, 0x3e15b09c3d03a92eU, 0x3e3aff0bbd9d444aU, 0x3ee669013da52546U,
  0xbed242b7be8f77d1U, 0xbf3cb0313eb1af6fU, 0x3ed20abf3ec51c52U, 0x3d65a0f83e883b4dU,
  0xbe8f44d2bef67067U, 0x3d9ea1c43e9145faU, 0x3e779b07beb2987cU, 0xbe167802bdf399a5U,
  0xbeb1d5983e400404U, 0xbd28c8293f02ad72U, 0x3f01261ebf8b37dfU, 0xbecc54e63f07e8e1U,
  0xbe0d1edf3ef92106U, 0x3de5eb5b3f68aa55U, 0xbf2f98503e07a023U, 0x3e00a13bbd0f19ecU,
  0x3c33214f3e303646U, 0x3dc4a0ecbf2d3760U, 0x3e8e3699beff2508U, 0x3df379a63d743583U,
  0x3dc4e4b5bf0b7ed5U, 0xbed77368bf2fdeebU, 0xbec3583b3f109f19U, 0x3e7e16483d5b4b72U,
  0x3d4fb6babf252d52U, 0x3ecb96863d3feb4eU, 0x3e8f1d0dbeddd3b1U, 0xbf5a54b5bf4346a9U,
  0x3dd23a9c3e44439aU, 0x3eef903f3dd4fa13U, 0x3e44ac0f3c3099f6U, 0xbc865419be4c6c42U,
  0x3e1210dcbd54fea9U, 0x3ebd4c10bd74d42eU, 0xbdb914e1be50baaeU, 0xbe3fcb01bf6bcca7U,
  0xbe662bcd3ec26164U, 0xbe07a1823ef65b6fU, 0x3e7c3ac7bef0fd77U, 0x3e6186a33e809dffU,
  0x3ebe22dbbe74f7ecU, 0xbefc73463d5fccfcU, 0xbe7beee93f24e974U, 0x3eb8915ebe186d58U,
  0x3e078d50becc9aa9U, 0xbf43791cbf32cedfU, 0x3def735dbefd14a4U, 0x3e737f98be922e63U,
  0x3e8ab9e6bf3ca839U, 0x3eb64048bab8fcf0U, 0xbee661c2be25d732U, 0xbef4d5613f5dd339U,
  0x3eb96024bf08d38bU, 0xbf06240a3e8c3aecU, 0x3ec5cedc3d3d029aU, 0x3e936b8c3f0928bcU,
  0xbeaa7d973ef47e8cU, 0x3ec8c514bf8ae4c3U, 0x3ea608103f0234bdU, 0x3f2039943c89878aU,
  0xbeb80f14bb9b5311U, 0x3e1fec61bf38e34fU, 0xbed1d9d9bce30a61U, 0x3f0582e5be9d4af7U,
  0x3eddfa09bc891dfcU, 0xbdfeb423becf98a6U, 0x3e1887813f4c1211U, 0xbde67eb4be6c8f31U,
  0xbdfc48af3f570184U, 0x3eb36ddfbea35d17U, 0x3e8df495be8b7af0U, 0x3e96b002bf0bb9d0U,
  0x3eb0ac313f0976e0U, 0xbf0409e63d9363e6U, 0x3d836a0a3df659c6U, 0xbcd465c33da1879bU,
  0xbe962030U,
};


ai_handle g_cnn_cardiac_weights_table[1 + 2] = {
  AI_HANDLE_PTR(AI_MAGIC_MARKER),
  AI_HANDLE_PTR(s_cnn_cardiac_weights_array_u64),
  AI_HANDLE_PTR(AI_MAGIC_MARKER),
};

